TRT-8503-MinMaxCalibration
images: 3c010204
122: 3ea123c1
123: 3c010204
124: 3ea0a8cb
125: 3f11bcca
126: 3c010204
127: 3f07f94d
128: 3e899fbd
138: 3f0e2785
129: 3c010204
139: 3c010204
130: 3e113d6c
140: 3e9231de
131: 3e7787a6
132: 3c00ff28
133: 3d96e376
134: 3e1750d9
135: 3c010204
136: 3e048896
137: 3e33058e
141: 3e9231de
142: 3e2fbc05
143: 3c010204
144: 3e025d75
145: 3daf4e8d
146: 3c00ff8d
147: 3d993728
148: 3d6aa39c
165: 3da02e8f
149: 3bff0863
166: 3c00feee
150: 3d0dcf7a
167: 3d95a8c2
151: 3dcc1117
152: 3c0101e9
153: 3dcc10ed
154: 3d43a263
155: 3c00b58a
156: 3d432e69
157: 3d80ca23
158: 3dc1fdc8
159: 3c0101d2
160: 3dc1fd7c
161: 3dd0ed9e
162: 3c0101f0
163: 3dd0ed7e
164: 3dd99f24
168: 3dd99f24
169: 3d961410
170: 3c00ff02
171: 3d961090
172: 3da47025
173: 3c0100c7
174: 3da46e91
175: 3d7c48da
199: 3da66d24
176: 3bff2924
200: 3c0100ec
177: 3d0f4cc8
201: 3da66bba
178: 3ddbabc8
179: 3c0101fa
180: 3ddbabb6
181: 3d8653b1
182: 3c004627
183: 3d259685
184: 3d219077
185: 3da48453
186: 3c00fe21
187: 3d91e22c
188: 3d929429
189: 3c00edee
190: 3d6ea868
191: 3da938e4
192: 3dafa783
193: 3c00d418
194: 3d53d206
195: 3dade97f
196: 3c010056
197: 3d9f5604
198: 3e035f0e
202: 3e035f0e
203: 3d797f3e
204: 3c00f301
205: 3d781637
206: 3d7c875e
207: 3c00da81
208: 3d58b4c1
209: 3d41d503
219: 3d856862
210: 3bfea517
220: 3c00f64b
211: 3d09a8f6
221: 3d800b8c
212: 3dbe42a5
213: 3c0101c5
214: 3dbe4248
215: 3da3006a
216: 3c0100aa
217: 3da2feb5
218: 3d9e83b0
222: 3d9e83b0
223: 3d902e05
224: 3c00f126
225: 3d745219
226: 3d75af30
227: 3c00f1c9
228: 3d759047
229: 3d759047
230: 3d759047
231: 3d759047
232: 3d759047
233: 3d64c592
234: 3c003c72
235: 3d23eac1
236: 3d8eb90c
237: 3bffe6a9
238: 3d196918
243: 3d196918
244: 3d781637
245: 3d7953bf
254: 3d85597c
246: 3c004f20
255: 3c00a6db
247: 3d273634
256: 3d3d6d5c
248: 3d805cb0
249: 3c00f67d
250: 3d805137
251: 3d90d151
252: 3c00e916
253: 3d67a7d4
257: 3d67a7d4
258: 3dad9d9e
259: 3c00d110
260: 3d51bc8b
261: 3d774b45
262: 3c003c34
263: 3d23e060
268: 3d23e060
269: 3d961090
270: 3d907c0e
279: 3d646d5d
271: 3bfa225e
280: 3c00e64f
272: 3cd8346a
281: 3d643c4d
273: 3d7f7afb
274: 3c00a373
275: 3d3c3a1e
276: 3e554781
277: 3c0101fe
278: 3de5b175
282: 3de5b175
283: 3e86f6ff
284: 3c010204
285: 3e04895a
286: 3d8df143
326: 3e447ed2
287: 3c00fd15
p3: 3c00e953
288: 3d8debd5
289: 3d8debd5
290: 3da5e9d8
299: 3d71f654
291: 3c00fc62
300: 3c00d79a
292: 3d8bc990
301: 3d56669a
293: 3d99eeef
294: 3c00dd78
295: 3d5b3ec6
296: 3dec3722
297: 3c01015a
298: 3dae417f
302: 3dae417f
303: 3e24c0c9
304: 3c010203
305: 3dfd3ac5
306: 3d80f138
328: 3e1107d4
307: 3c00f6e5
p4: 3c00eae2
308: 3d80e61b
309: 3d80e61b
310: 3d690c86
319: 3d6c9d2a
311: 3c00e981
320: 3c00ec84
312: 3d6833c5
321: 3d6c75bb
313: 3d856ac6
314: 3c00e0f2
315: 3d5e7cdb
316: 3d89bcc3
317: 3c00e003
318: 3d5d964d
322: 3d6c75bb
323: 3db0f34d
324: 3c00f662
325: 3d802afb
330: 3e324aa9
p5: 3c0101bb
DecodeDetectionBoxes: 40a1a98b
DecodeDetectionScores: 3be65eec
